unsigned char wine_mlp_float_tflite[] = {
  0x1c, 0x00, 0x00, 0x00, 0x54, 0x46, 0x4c, 0x33, 0x14, 0x00, 0x20, 0x00,
  0x1c, 0x00, 0x18, 0x00, 0x14, 0x00, 0x10, 0x00, 0x0c, 0x00, 0x00, 0x00,
  0x08, 0x00, 0x04, 0x00, 0x14, 0x00, 0x00, 0x00, 0x1c, 0x00, 0x00, 0x00,
  0x98, 0x00, 0x00, 0x00, 0xf0, 0x00, 0x00, 0x00, 0x1c, 0x08, 0x00, 0x00,
  0x2c, 0x08, 0x00, 0x00, 0xcc, 0x0d, 0x00, 0x00, 0x03, 0x00, 0x00, 0x00,
  0x01, 0x00, 0x00, 0x00, 0x10, 0x00, 0x00, 0x00, 0x00, 0x00, 0x0a, 0x00,
  0x10, 0x00, 0x0c, 0x00, 0x08, 0x00, 0x04, 0x00, 0x0a, 0x00, 0x00, 0x00,
  0x0c, 0x00, 0x00, 0x00, 0x1c, 0x00, 0x00, 0x00, 0x3c, 0x00, 0x00, 0x00,
  0x0f, 0x00, 0x00, 0x00, 0x73, 0x65, 0x72, 0x76, 0x69, 0x6e, 0x67, 0x5f,
  0x64, 0x65, 0x66, 0x61, 0x75, 0x6c, 0x74, 0x00, 0x01, 0x00, 0x00, 0x00,
  0x04, 0x00, 0x00, 0x00, 0x90, 0xff, 0xff, 0xff, 0x0a, 0x00, 0x00, 0x00,
  0x04, 0x00, 0x00, 0x00, 0x08, 0x00, 0x00, 0x00, 0x6f, 0x75, 0x74, 0x70,
  0x75, 0x74, 0x5f, 0x30, 0x00, 0x00, 0x00, 0x00, 0x01, 0x00, 0x00, 0x00,
  0x04, 0x00, 0x00, 0x00, 0xca, 0xf7, 0xff, 0xff, 0x04, 0x00, 0x00, 0x00,
  0x0c, 0x00, 0x00, 0x00, 0x6b, 0x65, 0x72, 0x61, 0x73, 0x5f, 0x74, 0x65,
  0x6e, 0x73, 0x6f, 0x72, 0x00, 0x00, 0x00, 0x00, 0x02, 0x00, 0x00, 0x00,
  0x34, 0x00, 0x00, 0x00, 0x04, 0x00, 0x00, 0x00, 0xdc, 0xff, 0xff, 0xff,
  0x0d, 0x00, 0x00, 0x00, 0x04, 0x00, 0x00, 0x00, 0x13, 0x00, 0x00, 0x00,
  0x43, 0x4f, 0x4e, 0x56, 0x45, 0x52, 0x53, 0x49, 0x4f, 0x4e, 0x5f, 0x4d,
  0x45, 0x54, 0x41, 0x44, 0x41, 0x54, 0x41, 0x00, 0x08, 0x00, 0x0c, 0x00,
  0x08, 0x00, 0x04, 0x00, 0x08, 0x00, 0x00, 0x00, 0x0c, 0x00, 0x00, 0x00,
  0x04, 0x00, 0x00, 0x00, 0x13, 0x00, 0x00, 0x00, 0x6d, 0x69, 0x6e, 0x5f,
  0x72, 0x75, 0x6e, 0x74, 0x69, 0x6d, 0x65, 0x5f, 0x76, 0x65, 0x72, 0x73,
  0x69, 0x6f, 0x6e, 0x00, 0x0e, 0x00, 0x00, 0x00, 0x28, 0x07, 0x00, 0x00,
  0x20, 0x07, 0x00, 0x00, 0xb0, 0x06, 0x00, 0x00, 0xa0, 0x04, 0x00, 0x00,
  0x84, 0x04, 0x00, 0x00, 0x54, 0x04, 0x00, 0x00, 0x04, 0x04, 0x00, 0x00,
  0xb4, 0x00, 0x00, 0x00, 0xac, 0x00, 0x00, 0x00, 0xa4, 0x00, 0x00, 0x00,
  0x9c, 0x00, 0x00, 0x00, 0x94, 0x00, 0x00, 0x00, 0x74, 0x00, 0x00, 0x00,
  0x04, 0x00, 0x00, 0x00, 0x7e, 0xf8, 0xff, 0xff, 0x04, 0x00, 0x00, 0x00,
  0x60, 0x00, 0x00, 0x00, 0x10, 0x00, 0x00, 0x00, 0x00, 0x00, 0x00, 0x00,
  0x08, 0x00, 0x0e, 0x00, 0x08, 0x00, 0x04, 0x00, 0x08, 0x00, 0x00, 0x00,
  0x10, 0x00, 0x00, 0x00, 0x24, 0x00, 0x00, 0x00, 0x00, 0x00, 0x06, 0x00,
  0x08, 0x00, 0x04, 0x00, 0x06, 0x00, 0x00, 0x00, 0x04, 0x00, 0x00, 0x00,
  0x00, 0x00, 0x00, 0x00, 0x0c, 0x00, 0x18, 0x00, 0x14, 0x00, 0x10, 0x00,
  0x0c, 0x00, 0x04, 0x00, 0x0c, 0x00, 0x00, 0x00, 0x86, 0x15, 0xde, 0x51,
  0xa6, 0x78, 0xd4, 0x03, 0x02, 0x00, 0x00, 0x00, 0x02, 0x00, 0x00, 0x00,
  0x04, 0x00, 0x00, 0x00, 0x06, 0x00, 0x00, 0x00, 0x32, 0x2e, 0x31, 0x39,
  0x2e, 0x30, 0x00, 0x00, 0xea, 0xf8, 0xff, 0xff, 0x04, 0x00, 0x00, 0x00,
  0x10, 0x00, 0x00, 0x00, 0x31, 0x2e, 0x35, 0x2e, 0x30, 0x00, 0x00, 0x00,
  0x00, 0x00, 0x00, 0x00, 0x00, 0x00, 0x00, 0x00, 0x14, 0xf4, 0xff, 0xff,
  0x18, 0xf4, 0xff, 0xff, 0x1c, 0xf4, 0xff, 0xff, 0x20, 0xf4, 0xff, 0xff,
  0x16, 0xf9, 0xff, 0xff, 0x04, 0x00, 0x00, 0x00, 0x40, 0x03, 0x00, 0x00,
  0xc4, 0x66, 0x48, 0x3e, 0x54, 0x28, 0x8c, 0x3d, 0xae, 0x8a, 0xb0, 0xbb,
  0x95, 0x99, 0x21, 0x3e, 0x9e, 0x46, 0xa0, 0x3e, 0x18, 0x23, 0xef, 0x3a,
  0x60, 0xe2, 0x9a, 0x3d, 0xb0, 0x8e, 0x00, 0x3f, 0x4b, 0x6e, 0x0b, 0x3e,
  0xc0, 0x0a, 0x00, 0x3f, 0xfd, 0xa3, 0xd8, 0xbe, 0x28, 0xa9, 0xeb, 0xbd,
  0xe9, 0x2a, 0x8a, 0xbe, 0xbe, 0x06, 0xd4, 0xbe, 0x9e, 0x95, 0x33, 0xbe,
  0x7b, 0xa2, 0x1f, 0xbe, 0x00, 0x1a, 0xc5, 0xbe, 0xaa, 0xfc, 0x77, 0xbe,
  0x91, 0x14, 0xd3, 0x3d, 0x04, 0x22, 0xb7, 0xbc, 0x2f, 0xf6, 0xd0, 0xbe,
  0xf2, 0x90, 0x04, 0x3f, 0x5e, 0x49, 0x52, 0xbe, 0x07, 0x6a, 0xa3, 0xbe,
  0x42, 0xb0, 0x9f, 0xbe, 0x4e, 0xd2, 0xac, 0xbd, 0xc8, 0x60, 0x1b, 0xbd,
  0xb1, 0x8d, 0x20, 0x3e, 0x66, 0x8a, 0xa5, 0x3c, 0x87, 0x57, 0xe0, 0x3c,
  0xab, 0xc6, 0xbd, 0x3e, 0xcb, 0xb5, 0x63, 0xbe, 0xd9, 0x8e, 0xaa, 0x3e,
  0xa8, 0x07, 0xb8, 0xbe, 0xb1, 0x2f, 0xcc, 0x3d, 0xaa, 0xd3, 0x77, 0x3d,
  0x6b, 0x43, 0x49, 0x3e, 0x90, 0x12, 0x07, 0x3f, 0x92, 0x6c, 0x07, 0x3f,
  0x48, 0xc6, 0xb7, 0x3d, 0x1c, 0xfb, 0xdc, 0xbd, 0x90, 0x9d, 0xef, 0xbd,
  0x66, 0x72, 0xca, 0x3e, 0x3d, 0xa0, 0x90, 0x3d, 0xac, 0x3c, 0x43, 0xbe,
  0x80, 0xf3, 0x60, 0xbb, 0x63, 0x82, 0x88, 0xbe, 0x91, 0xd8, 0x79, 0xbe,
  0x3f, 0x5c, 0xe9, 0xbe, 0x89, 0x01, 0x2f, 0x3d, 0x9f, 0xee, 0x66, 0xbd,
  0xde, 0x61, 0xb6, 0xbe, 0xcb, 0x96, 0xbb, 0x3e, 0xbe, 0xe6, 0xa2, 0x3e,
  0xa3, 0x69, 0xdc, 0xbd, 0x9b, 0x14, 0xac, 0xbe, 0x49, 0x5c, 0xaf, 0xbd,
  0x39, 0x16, 0x2d, 0x3f, 0x30, 0x9c, 0x0f, 0xbe, 0xec, 0xe3, 0x33, 0x3c,
  0x16, 0x27, 0xbb, 0x3c, 0x82, 0x6a, 0xf7, 0xbd, 0xf6, 0x08, 0xa5, 0x3d,
  0xb9, 0x3b, 0xf1, 0xbd, 0x17, 0xd6, 0x14, 0x3f, 0x3f, 0x15, 0x9a, 0xbd,
  0x63, 0x3a, 0x76, 0x3b, 0x6f, 0x60, 0x60, 0x3e, 0x29, 0x01, 0xac, 0xbe,
  0xd2, 0x8c, 0x3b, 0xbe, 0x00, 0x1c, 0x5e, 0xbe, 0x78, 0xbc, 0xb1, 0xbe,
  0x35, 0xae, 0x78, 0x3e, 0x0a, 0x2c, 0xea, 0x3e, 0xf5, 0xa9, 0xc2, 0x3d,
  0xf0, 0xd9, 0xce, 0x3e, 0x8b, 0xbf, 0xeb, 0x3c, 0xa4, 0x61, 0x04, 0xbe,
  0xc6, 0xf9, 0xd0, 0x3d, 0x5d, 0xc3, 0xeb, 0xbe, 0xa0, 0xca, 0x3c, 0xbe,
  0x75, 0x13, 0x1e, 0x3e, 0x5c, 0x89, 0xcc, 0x3e, 0x10, 0xe9, 0x9b, 0x3e,
  0xca, 0x82, 0xa8, 0xbe, 0x1b, 0x94, 0xee, 0xbe, 0xf4, 0xf9, 0x8f, 0xbe,
  0x98, 0x00, 0x59, 0xbb, 0x6a, 0x6c, 0x6d, 0x3e, 0x4c, 0x6d, 0x9c, 0xbe,
  0x1a, 0xa6, 0xbc, 0xbb, 0x0b, 0x3c, 0xda, 0x3e, 0xe3, 0x2d, 0x96, 0x3e,
  0x1f, 0x2d, 0x8c, 0xbe, 0xcc, 0xf2, 0x60, 0xbe, 0x27, 0xae, 0xc9, 0xbd,
  0x87, 0x19, 0x91, 0x3e, 0x6a, 0x6d, 0x9d, 0x3e, 0x74, 0x1a, 0xc7, 0x3e,
  0x9f, 0x62, 0x86, 0x3e, 0x6d, 0x0f, 0xcb, 0xbe, 0x82, 0x47, 0xb9, 0x3e,
  0x70, 0x6a, 0xc5, 0x3d, 0x4c, 0x06, 0xcb, 0xbe, 0x09, 0xf6, 0xb3, 0x3d,
  0xed, 0x2d, 0x7c, 0x3d, 0x64, 0xe2, 0xc1, 0xbd, 0x8b, 0xf6, 0x7d, 0x3e,
  0x17, 0xd5, 0x37, 0x3e, 0x98, 0xc7, 0x10, 0x3f, 0x47, 0xe6, 0x57, 0xbe,
  0x62, 0xa2, 0x1d, 0xbe, 0x79, 0x1b, 0xa5, 0xbe, 0x4f, 0xb6, 0xe4, 0xbd,
  0xb3, 0xc9, 0xe1, 0x3c, 0x26, 0x9a, 0x79, 0xbe, 0x71, 0x36, 0xb8, 0xbe,
  0xc3, 0x9b, 0x68, 0xbe, 0xee, 0xe3, 0x40, 0x3e, 0x78, 0xf5, 0x9b, 0xbe,
  0x3c, 0xea, 0x4c, 0x3d, 0x39, 0xd3, 0x15, 0xbf, 0x21, 0x9f, 0x17, 0x3e,
  0xb2, 0x0d, 0xea, 0x3e, 0x91, 0x05, 0xcd, 0x3d, 0xd7, 0x68, 0x95, 0xbd,
  0x09, 0x28, 0xf2, 0xbe, 0xe9, 0xe2, 0xb4, 0xbe, 0x05, 0xfc, 0xa3, 0x3e,
  0xee, 0xe9, 0xed, 0x3d, 0x32, 0xb5, 0x38, 0x3e, 0x3c, 0xd8, 0xa3, 0x3d,
  0x36, 0xe8, 0xac, 0xbe, 0xdc, 0x86, 0x94, 0xbe, 0xbb, 0x68, 0xb0, 0x3e,
  0xe7, 0x04, 0x9d, 0xbe, 0x55, 0xc5, 0x30, 0xbe, 0x20, 0x1c, 0xbb, 0x3e,
  0xa9, 0x79, 0x84, 0x3e, 0x8a, 0x30, 0xde, 0xbe, 0xde, 0x61, 0xed, 0x3d,
  0x51, 0x54, 0x44, 0x3e, 0x46, 0x37, 0x09, 0xbd, 0xd3, 0x78, 0x76, 0xbe,
  0x73, 0x23, 0x54, 0xbe, 0x33, 0x44, 0x0c, 0x3f, 0x42, 0x5a, 0x95, 0x3c,
  0x6f, 0x96, 0x9c, 0xbe, 0x72, 0x4b, 0xf7, 0x3c, 0xd4, 0x79, 0x5a, 0xbe,
  0xd1, 0x87, 0xa3, 0xbd, 0xc2, 0x42, 0x21, 0xbe, 0x88, 0xbd, 0x85, 0xbc,
  0x8b, 0xb0, 0x1c, 0xbf, 0x7e, 0xcd, 0x4b, 0xbe, 0xba, 0xc5, 0x85, 0xbe,
  0x25, 0xfa, 0x42, 0xbe, 0x10, 0x7e, 0x11, 0xbe, 0x81, 0x6d, 0xbe, 0xbd,
  0x39, 0xf0, 0x03, 0xbe, 0x4a, 0x1d, 0xd4, 0x3d, 0x4b, 0xda, 0x29, 0xbe,
  0x56, 0xb2, 0x3c, 0x3e, 0x33, 0xbf, 0x45, 0x3e, 0xf9, 0x22, 0xc9, 0x3e,
  0x99, 0xda, 0xe6, 0x3d, 0x8b, 0x53, 0x80, 0x3e, 0x63, 0x3a, 0x8d, 0xbe,
  0x8d, 0x95, 0xbd, 0x3e, 0x86, 0xe0, 0xc1, 0xbe, 0xdd, 0x77, 0x92, 0x3e,
  0x08, 0xd1, 0xf7, 0x3b, 0x8d, 0x41, 0x80, 0x3e, 0x69, 0xfd, 0xb8, 0x3e,
  0xba, 0x57, 0x82, 0xbe, 0xeb, 0x5e, 0xe1, 0xbd, 0xda, 0x7a, 0x91, 0x3e,
  0xe5, 0xc0, 0xa0, 0x3d, 0xcf, 0x82, 0xa2, 0x3e, 0x16, 0x55, 0xad, 0xbe,
  0x72, 0xee, 0xe5, 0x3d, 0x45, 0xa8, 0x10, 0xbf, 0xc3, 0xbf, 0xf9, 0xbe,
  0xcb, 0x59, 0x03, 0xbf, 0x2d, 0x2c, 0x12, 0x3d, 0x01, 0x9c, 0x57, 0x3e,
  0xe1, 0xce, 0xe9, 0xbe, 0x53, 0xc2, 0xfc, 0xbe, 0x2f, 0x1a, 0x84, 0x3d,
  0x98, 0xba, 0x10, 0x3e, 0x95, 0xf3, 0xba, 0x3d, 0xb3, 0xec, 0x2d, 0xbf,
  0x5a, 0xa1, 0x19, 0x3f, 0x18, 0x30, 0x12, 0x3e, 0xfb, 0x5b, 0x04, 0xbf,
  0x3a, 0xa7, 0xb7, 0xbe, 0x73, 0x0e, 0x6d, 0x3e, 0x0e, 0x44, 0x0f, 0xbe,
  0xd9, 0xd1, 0x11, 0x3f, 0xf0, 0xa6, 0xfc, 0xbe, 0x4c, 0x68, 0xed, 0xbe,
  0x0c, 0x9c, 0xbb, 0xbe, 0xf6, 0x4b, 0x19, 0xbe, 0x5d, 0x04, 0xc0, 0xbd,
  0x44, 0xf3, 0xb5, 0x3e, 0x6f, 0x10, 0x8a, 0xbe, 0x0e, 0xf4, 0xfd, 0xbe,
  0xa2, 0x54, 0x0e, 0xbe, 0x62, 0xfc, 0xff, 0xff, 0x04, 0x00, 0x00, 0x00,
  0x40, 0x00, 0x00, 0x00, 0x22, 0x53, 0x6c, 0x3d, 0x99, 0x69, 0x67, 0x3a,
  0xac, 0x91, 0x24, 0x3e, 0xd9, 0x9b, 0xa4, 0x3d, 0x13, 0xd3, 0x0a, 0x3e,
  0xc8, 0xfd, 0xc3, 0xbc, 0xf9, 0x6f, 0x6b, 0xbc, 0x01, 0x48, 0x2c, 0x3d,
  0x93, 0xbf, 0x03, 0xbc, 0x64, 0xa4, 0x50, 0x3e, 0x5f, 0x02, 0x01, 0xbe,
  0x41, 0x8b, 0xc3, 0xbc, 0xf8, 0x75, 0x0f, 0xbd, 0x13, 0xd9, 0x02, 0x3e,
  0x8f, 0xe7, 0x69, 0x3e, 0x46, 0xbd, 0x5d, 0x3e, 0xae, 0xfc, 0xff, 0xff,
  0x04, 0x00, 0x00, 0x00, 0x20, 0x00, 0x00, 0x00, 0xa0, 0x4f, 0xc3, 0x3d,
  0x08, 0x5d, 0xb9, 0xbd, 0x88, 0xe6, 0x02, 0xbd, 0x20, 0x6b, 0x0d, 0xbe,
  0x4f, 0xa4, 0x17, 0x3d, 0x4a, 0xbd, 0x83, 0x3e, 0x23, 0x94, 0xf2, 0x3b,
  0x3d, 0x72, 0x13, 0x3e, 0xda, 0xfc, 0xff, 0xff, 0x04, 0x00, 0x00, 0x00,
  0x0c, 0x00, 0x00, 0x00, 0x76, 0x3c, 0xba, 0x3d, 0x1d, 0x5f, 0x19, 0xbe,
  0x0a, 0xba, 0x34, 0x3d, 0xf2, 0xfc, 0xff, 0xff, 0x04, 0x00, 0x00, 0x00,
  0x00, 0x02, 0x00, 0x00, 0x27, 0xa1, 0xb1, 0xbe, 0x0b, 0xdd, 0x27, 0x3f,
  0xb1, 0x9b, 0x06, 0x3f, 0x6d, 0xb3, 0x95, 0xbe, 0x36, 0x59, 0xb3, 0x3c,
  0x86, 0x54, 0x69, 0xbe, 0xb6, 0x6e, 0xcc, 0x3e, 0x21, 0x37, 0xb7, 0x3d,
  0x20, 0x70, 0xa3, 0x3e, 0xe4, 0xb2, 0x42, 0x3e, 0x1e, 0xca, 0xbd, 0x3e,
  0x26, 0x59, 0x02, 0xbd, 0xb1, 0x97, 0x69, 0xbd, 0x56, 0xd5, 0xe6, 0x3d,
  0x76, 0x02, 0x2b, 0x3f, 0x9d, 0xe7, 0x21, 0xbd, 0x02, 0xdb, 0x03, 0x3e,
  0x9b, 0x42, 0x85, 0xbd, 0x48, 0x86, 0x6d, 0x3e, 0x57, 0xe9, 0xa6, 0xbe,
  0xc9, 0x38, 0xdb, 0xbe, 0x47, 0x28, 0x12, 0xbf, 0x37, 0xb2, 0xa9, 0xbc,
  0xfb, 0x17, 0xc5, 0xbc, 0x01, 0x68, 0xe7, 0x3e, 0xfc, 0x32, 0x97, 0x3e,
  0x6a, 0x99, 0x8d, 0xbe, 0x8c, 0x95, 0xb1, 0x3e, 0x74, 0xfa, 0x93, 0xbe,
  0xd0, 0x81, 0x8b, 0x3d, 0xa5, 0xe0, 0x78, 0xbe, 0xe3, 0x5e, 0xfe, 0xbe,
  0x1a, 0x6d, 0x17, 0xbe, 0x89, 0x95, 0x5c, 0x3e, 0x00, 0x3d, 0xeb, 0x3d,
  0xee, 0x4d, 0x05, 0x3f, 0x1a, 0xcb, 0x93, 0xbd, 0xda, 0xf6, 0xad, 0xbd,
  0x8b, 0x30, 0x36, 0x3e, 0x60, 0x7e, 0x33, 0xbd, 0x2f, 0xdd, 0x90, 0xbe,
  0x2c, 0x89, 0xb7, 0x3e, 0x97, 0x53, 0x0e, 0x3e, 0xbf, 0x3b, 0x08, 0xbe,
  0xcf, 0x88, 0x81, 0xbd, 0xd3, 0x8f, 0xdb, 0x3e, 0x28, 0xc6, 0x37, 0x3f,
  0x7e, 0x32, 0x44, 0xbe, 0xf0, 0x9a, 0xc3, 0xbe, 0x04, 0xe5, 0xed, 0xbd,
  0x94, 0x74, 0x46, 0x3e, 0x6c, 0x49, 0x57, 0x3e, 0x6b, 0xa0, 0x8e, 0x3d,
  0xb7, 0xe8, 0xf4, 0xbe, 0x9b, 0x5e, 0x04, 0xbf, 0x37, 0x81, 0xb9, 0x3e,
  0xcf, 0x17, 0xac, 0xbe, 0x9c, 0x8d, 0xcd, 0xbe, 0xb4, 0x68, 0x06, 0x3e,
  0xb9, 0x81, 0x9c, 0x3e, 0xf0, 0xae, 0xe0, 0xbe, 0xa2, 0xaa, 0x61, 0x3e,
  0x8a, 0x51, 0x08, 0xbe, 0x12, 0x51, 0x9a, 0xbe, 0x28, 0x5a, 0xa5, 0xbe,
  0x6a, 0xca, 0xdc, 0x3e, 0xaa, 0x95, 0x39, 0x3f, 0xc3, 0x12, 0x0f, 0xbe,
  0x48, 0x40, 0x8a, 0x3e, 0x5b, 0xe3, 0xbb, 0x3e, 0xfc, 0x7e, 0xc1, 0x3e,
  0x8b, 0x13, 0xaf, 0x3e, 0xb0, 0x41, 0xaf, 0x3e, 0x6a, 0xf5, 0x8b, 0x3e,
  0x13, 0x85, 0x37, 0xbe, 0x14, 0x53, 0x57, 0xbd, 0x11, 0x53, 0xde, 0x3e,
  0xe0, 0xac, 0x02, 0x3e, 0x4a, 0xfd, 0xb1, 0x3e, 0x1c, 0xb0, 0x38, 0xbe,
  0x23, 0x2f, 0x93, 0x3e, 0xcf, 0x65, 0x9d, 0x3e, 0xe9, 0x6d, 0x8a, 0xbe,
  0x50, 0xd7, 0xad, 0x3d, 0xe7, 0x0e, 0x10, 0xbe, 0x56, 0x4a, 0x98, 0x3d,
  0xf6, 0x06, 0x31, 0x3e, 0x29, 0xce, 0x18, 0xbf, 0x1d, 0x5f, 0x87, 0x3e,
  0xab, 0x0a, 0xb6, 0xbd, 0x71, 0xdf, 0xcd, 0x3d, 0x95, 0x3c, 0xf7, 0x3e,
  0xa1, 0xf3, 0x4d, 0xbd, 0xde, 0x6a, 0x2d, 0x3f, 0xfa, 0x10, 0x16, 0xbf,
  0xc0, 0x2d, 0x12, 0x3f, 0x13, 0x56, 0x13, 0xbd, 0xea, 0x68, 0x5e, 0xbe,
  0xfd, 0x9b, 0x02, 0xbf, 0x28, 0x52, 0xc0, 0x3d, 0x72, 0x09, 0xae, 0xbe,
  0x29, 0x2c, 0x64, 0xbd, 0x52, 0xa0, 0x9c, 0xbe, 0xc6, 0x8e, 0x25, 0x3e,
  0x75, 0xc0, 0x3b, 0x3e, 0xc4, 0xfd, 0xfc, 0x3e, 0x57, 0x1c, 0x2a, 0x3e,
  0xb4, 0x85, 0xa8, 0xbe, 0x1c, 0x39, 0x40, 0xbe, 0x77, 0x8a, 0x73, 0xbd,
  0x82, 0xdc, 0x28, 0x3f, 0xb6, 0x89, 0x72, 0x3e, 0x5a, 0xaf, 0x88, 0xbe,
  0x3b, 0x2a, 0xc3, 0xbe, 0x96, 0x3e, 0xff, 0x3e, 0x15, 0xe8, 0x12, 0xbf,
  0x15, 0x42, 0x2e, 0x3f, 0x1b, 0xf8, 0xa4, 0xbe, 0xe4, 0x41, 0xab, 0xbd,
  0x49, 0x0a, 0xad, 0x3e, 0x15, 0x58, 0xcc, 0xbe, 0x5d, 0xa6, 0x15, 0x3e,
  0x33, 0xc2, 0x7d, 0xbe, 0x10, 0x00, 0x88, 0x3e, 0xfd, 0x35, 0x2e, 0x3e,
  0x4d, 0x26, 0xf6, 0xbe, 0x3d, 0x0b, 0xdb, 0x3d, 0xe5, 0xb2, 0xbb, 0xbe,
  0xfe, 0xfe, 0xff, 0xff, 0x04, 0x00, 0x00, 0x00, 0x60, 0x00, 0x00, 0x00,
  0xd2, 0x92, 0xcd, 0x3e, 0xe6, 0x80, 0x90, 0xbc, 0x62, 0xf3, 0x48, 0xbe,
  0xee, 0xcd, 0x0a, 0xbf, 0x89, 0x73, 0x19, 0x3d, 0xc1, 0x67, 0x35, 0xbf,
  0x6f, 0x05, 0x23, 0xbf, 0x30, 0x60, 0x7d, 0x3f, 0x96, 0xb3, 0x2d, 0x3f,
  0x3f, 0xbc, 0x2c, 0x3f, 0x38, 0xd6, 0x7e, 0x3e, 0x25, 0xf9, 0x89, 0xbe,
  0x7d, 0xf7, 0x10, 0x3e, 0xc1, 0xab, 0x41, 0xbf, 0xbf, 0x36, 0x20, 0x3f,
  0x27, 0xd5, 0x4f, 0xbf, 0xb4, 0x55, 0xa2, 0xbd, 0xd5, 0x9d, 0x7c, 0xbe,
  0x6e, 0xed, 0xa4, 0xbe, 0x79, 0x3c, 0x52, 0xbd, 0xc2, 0x1a, 0x16, 0xbf,
  0x1c, 0x21, 0x4c, 0xbd, 0xc9, 0x31, 0xac, 0xbe, 0x64, 0xee, 0xf3, 0xbc,
  0x78, 0xfa, 0xff, 0xff, 0x7c, 0xfa, 0xff, 0xff, 0x0f, 0x00, 0x00, 0x00,
  0x4d, 0x4c, 0x49, 0x52, 0x20, 0x43, 0x6f, 0x6e, 0x76, 0x65, 0x72, 0x74,
  0x65, 0x64, 0x2e, 0x00, 0x01, 0x00, 0x00, 0x00, 0x14, 0x00, 0x00, 0x00,
  0x00, 0x00, 0x0e, 0x00, 0x18, 0x00, 0x14, 0x00, 0x10, 0x00, 0x0c, 0x00,
  0x08, 0x00, 0x04, 0x00, 0x0e, 0x00, 0x00, 0x00, 0x14, 0x00, 0x00, 0x00,
  0x1c, 0x00, 0x00, 0x00, 0x24, 0x01, 0x00, 0x00, 0x28, 0x01, 0x00, 0x00,
  0x2c, 0x01, 0x00, 0x00, 0x04, 0x00, 0x00, 0x00, 0x6d, 0x61, 0x69, 0x6e,
  0x00, 0x00, 0x00, 0x00, 0x04, 0x00, 0x00, 0x00, 0xcc, 0x00, 0x00, 0x00,
  0x84, 0x00, 0x00, 0x00, 0x50, 0x00, 0x00, 0x00, 0x14, 0x00, 0x00, 0x00,
  0x00, 0x00, 0x0e, 0x00, 0x1a, 0x00, 0x14, 0x00, 0x10, 0x00, 0x0c, 0x00,
  0x0b, 0x00, 0x04, 0x00, 0x0e, 0x00, 0x00, 0x00, 0x1c, 0x00, 0x00, 0x00,
  0x00, 0x00, 0x00, 0x09, 0x1c, 0x00, 0x00, 0x00, 0x20, 0x00, 0x00, 0x00,
  0x01, 0x00, 0x00, 0x00, 0x00, 0x00, 0x06, 0x00, 0x08, 0x00, 0x04, 0x00,
  0x06, 0x00, 0x00, 0x00, 0x00, 0x00, 0x80, 0x3f, 0x01, 0x00, 0x00, 0x00,
  0x0a, 0x00, 0x00, 0x00, 0x01, 0x00, 0x00, 0x00, 0x09, 0x00, 0x00, 0x00,
  0x9a, 0xff, 0xff, 0xff, 0x10, 0x00, 0x00, 0x00, 0x00, 0x00, 0x00, 0x08,
  0x0c, 0x00, 0x00, 0x00, 0x10, 0x00, 0x00, 0x00, 0x40, 0xfb, 0xff, 0xff,
  0x01, 0x00, 0x00, 0x00, 0x09, 0x00, 0x00, 0x00, 0x03, 0x00, 0x00, 0x00,
  0x08, 0x00, 0x00, 0x00, 0x01, 0x00, 0x00, 0x00, 0x03, 0x00, 0x00, 0x00,
  0xca, 0xff, 0xff, 0xff, 0x10, 0x00, 0x00, 0x00, 0x00, 0x00, 0x00, 0x08,
  0x10, 0x00, 0x00, 0x00, 0x14, 0x00, 0x00, 0x00, 0xba, 0xff, 0xff, 0xff,
  0x00, 0x00, 0x00, 0x01, 0x01, 0x00, 0x00, 0x00, 0x08, 0x00, 0x00, 0x00,
  0x03, 0x00, 0x00, 0x00, 0x07, 0x00, 0x00, 0x00, 0x02, 0x00, 0x00, 0x00,
  0x04, 0x00, 0x00, 0x00, 0x00, 0x00, 0x0e, 0x00, 0x16, 0x00, 0x00, 0x00,
  0x10, 0x00, 0x0c, 0x00, 0x0b, 0x00, 0x04, 0x00, 0x0e, 0x00, 0x00, 0x00,
  0x18, 0x00, 0x00, 0x00, 0x00, 0x00, 0x00, 0x08, 0x18, 0x00, 0x00, 0x00,
  0x1c, 0x00, 0x00, 0x00, 0x00, 0x00, 0x06, 0x00, 0x08, 0x00, 0x07, 0x00,
  0x06, 0x00, 0x00, 0x00, 0x00, 0x00, 0x00, 0x01, 0x01, 0x00, 0x00, 0x00,
  0x07, 0x00, 0x00, 0x00, 0x03, 0x00, 0x00, 0x00, 0x00, 0x00, 0x00, 0x00,
  0x06, 0x00, 0x00, 0x00, 0x05, 0x00, 0x00, 0x00, 0x01, 0x00, 0x00, 0x00,
  0x0a, 0x00, 0x00, 0x00, 0x01, 0x00, 0x00, 0x00, 0x00, 0x00, 0x00, 0x00,
  0x0b, 0x00, 0x00, 0x00, 0xe8, 0x03, 0x00, 0x00, 0x90, 0x03, 0x00, 0x00,
  0x38, 0x03, 0x00, 0x00, 0xfc, 0x02, 0x00, 0x00, 0xc0, 0x02, 0x00, 0x00,
  0x64, 0x02, 0x00, 0x00, 0x14, 0x02, 0x00, 0x00, 0x78, 0x01, 0x00, 0x00,
  0xdc, 0x00, 0x00, 0x00, 0x60, 0x00, 0x00, 0x00, 0x04, 0x00, 0x00, 0x00,
  0x5a, 0xfc, 0xff, 0xff, 0x00, 0x00, 0x00, 0x01, 0x14, 0x00, 0x00, 0x00,
  0x1c, 0x00, 0x00, 0x00, 0x1c, 0x00, 0x00, 0x00, 0x0b, 0x00, 0x00, 0x00,
  0x34, 0x00, 0x00, 0x00, 0x02, 0x00, 0x00, 0x00, 0xff, 0xff, 0xff, 0xff,
  0x03, 0x00, 0x00, 0x00, 0x44, 0xfc, 0xff, 0xff, 0x1b, 0x00, 0x00, 0x00,
  0x53, 0x74, 0x61, 0x74, 0x65, 0x66, 0x75, 0x6c, 0x50, 0x61, 0x72, 0x74,
  0x69, 0x74, 0x69, 0x6f, 0x6e, 0x65, 0x64, 0x43, 0x61, 0x6c, 0x6c, 0x5f,
  0x31, 0x3a, 0x30, 0x00, 0x02, 0x00, 0x00, 0x00, 0x01, 0x00, 0x00, 0x00,
  0x03, 0x00, 0x00, 0x00, 0xb2, 0xfc, 0xff, 0xff, 0x00, 0x00, 0x00, 0x01,
  0x14, 0x00, 0x00, 0x00, 0x1c, 0x00, 0x00, 0x00, 0x1c, 0x00, 0x00, 0x00,
  0x0a, 0x00, 0x00, 0x00, 0x54, 0x00, 0x00, 0x00, 0x02, 0x00, 0x00, 0x00,
  0xff, 0xff, 0xff, 0xff, 0x03, 0x00, 0x00, 0x00, 0x9c, 0xfc, 0xff, 0xff,
  0x3a, 0x00, 0x00, 0x00, 0x73, 0x65, 0x71, 0x75, 0x65, 0x6e, 0x74, 0x69,
  0x61, 0x6c, 0x5f, 0x31, 0x2f, 0x6f, 0x75, 0x74, 0x70, 0x75, 0x74, 0x5f,
  0x31, 0x2f, 0x4d, 0x61, 0x74, 0x4d, 0x75, 0x6c, 0x3b, 0x73, 0x65, 0x71,
  0x75, 0x65, 0x6e, 0x74, 0x69, 0x61, 0x6c, 0x5f, 0x31, 0x2f, 0x6f, 0x75,
  0x74, 0x70, 0x75, 0x74, 0x5f, 0x31, 0x2f, 0x42, 0x69, 0x61, 0x73, 0x41,
  0x64, 0x64, 0x00, 0x00, 0x02, 0x00, 0x00, 0x00, 0x01, 0x00, 0x00, 0x00,
  0x03, 0x00, 0x00, 0x00, 0x2a, 0xfd, 0xff, 0xff, 0x00, 0x00, 0x00, 0x01,
  0x14, 0x00, 0x00, 0x00, 0x1c, 0x00, 0x00, 0x00, 0x1c, 0x00, 0x00, 0x00,
  0x09, 0x00, 0x00, 0x00, 0x74, 0x00, 0x00, 0x00, 0x02, 0x00, 0x00, 0x00,
  0xff, 0xff, 0xff, 0xff, 0x08, 0x00, 0x00, 0x00, 0x14, 0xfd, 0xff, 0xff,
  0x5b, 0x00, 0x00, 0x00, 0x73, 0x65, 0x71, 0x75, 0x65, 0x6e, 0x74, 0x69,
  0x61, 0x6c, 0x5f, 0x31, 0x2f, 0x68, 0x69, 0x64, 0x64, 0x65, 0x6e, 0x5f,
  0x32, 0x5f, 0x31, 0x2f, 0x4d, 0x61, 0x74, 0x4d, 0x75, 0x6c, 0x3b, 0x73,
  0x65, 0x71, 0x75, 0x65, 0x6e, 0x74, 0x69, 0x61, 0x6c, 0x5f, 0x31, 0x2f,
  0x68, 0x69, 0x64, 0x64, 0x65, 0x6e, 0x5f, 0x32, 0x5f, 0x31, 0x2f, 0x52,
  0x65, 0x6c, 0x75, 0x3b, 0x73, 0x65, 0x71, 0x75, 0x65, 0x6e, 0x74, 0x69,
  0x61, 0x6c, 0x5f, 0x31, 0x2f, 0x68, 0x69, 0x64, 0x64, 0x65, 0x6e, 0x5f,
  0x32, 0x5f, 0x31, 0x2f, 0x42, 0x69, 0x61, 0x73, 0x41, 0x64, 0x64, 0x00,
  0x02, 0x00, 0x00, 0x00, 0x01, 0x00, 0x00, 0x00, 0x08, 0x00, 0x00, 0x00,
  0xc2, 0xfd, 0xff, 0xff, 0x00, 0x00, 0x00, 0x01, 0x14, 0x00, 0x00, 0x00,
  0x1c, 0x00, 0x00, 0x00, 0x1c, 0x00, 0x00, 0x00, 0x08, 0x00, 0x00, 0x00,
  0x74, 0x00, 0x00, 0x00, 0x02, 0x00, 0x00, 0x00, 0xff, 0xff, 0xff, 0xff,
  0x10, 0x00, 0x00, 0x00, 0xac, 0xfd, 0xff, 0xff, 0x5b, 0x00, 0x00, 0x00,
  0x73, 0x65, 0x71, 0x75, 0x65, 0x6e, 0x74, 0x69, 0x61, 0x6c, 0x5f, 0x31,
  0x2f, 0x68, 0x69, 0x64, 0x64, 0x65, 0x6e, 0x5f, 0x31, 0x5f, 0x31, 0x2f,
  0x4d, 0x61, 0x74, 0x4d, 0x75, 0x6c, 0x3b, 0x73, 0x65, 0x71, 0x75, 0x65,
  0x6e, 0x74, 0x69, 0x61, 0x6c, 0x5f, 0x31, 0x2f, 0x68, 0x69, 0x64, 0x64,
  0x65, 0x6e, 0x5f, 0x31, 0x5f, 0x31, 0x2f, 0x52, 0x65, 0x6c, 0x75, 0x3b,
  0x73, 0x65, 0x71, 0x75, 0x65, 0x6e, 0x74, 0x69, 0x61, 0x6c, 0x5f, 0x31,
  0x2f, 0x68, 0x69, 0x64, 0x64, 0x65, 0x6e, 0x5f, 0x31, 0x5f, 0x31, 0x2f,
  0x42, 0x69, 0x61, 0x73, 0x41, 0x64, 0x64, 0x00, 0x02, 0x00, 0x00, 0x00,
  0x01, 0x00, 0x00, 0x00, 0x10, 0x00, 0x00, 0x00, 0xae, 0xfe, 0xff, 0xff,
  0x00, 0x00, 0x00, 0x01, 0x10, 0x00, 0x00, 0x00, 0x10, 0x00, 0x00, 0x00,
  0x07, 0x00, 0x00, 0x00, 0x2c, 0x00, 0x00, 0x00, 0x34, 0xfe, 0xff, 0xff,
  0x1e, 0x00, 0x00, 0x00, 0x73, 0x65, 0x71, 0x75, 0x65, 0x6e, 0x74, 0x69,
  0x61, 0x6c, 0x5f, 0x31, 0x2f, 0x68, 0x69, 0x64, 0x64, 0x65, 0x6e, 0x5f,
  0x31, 0x5f, 0x31, 0x2f, 0x4d, 0x61, 0x74, 0x4d, 0x75, 0x6c, 0x00, 0x00,
  0x02, 0x00, 0x00, 0x00, 0x10, 0x00, 0x00, 0x00, 0x0d, 0x00, 0x00, 0x00,
  0xfa, 0xfe, 0xff, 0xff, 0x00, 0x00, 0x00, 0x01, 0x10, 0x00, 0x00, 0x00,
  0x10, 0x00, 0x00, 0x00, 0x06, 0x00, 0x00, 0x00, 0x3c, 0x00, 0x00, 0x00,
  0x80, 0xfe, 0xff, 0xff, 0x2e, 0x00, 0x00, 0x00, 0x73, 0x65, 0x71, 0x75,
  0x65, 0x6e, 0x74, 0x69, 0x61, 0x6c, 0x5f, 0x31, 0x2f, 0x68, 0x69, 0x64,
  0x64, 0x65, 0x6e, 0x5f, 0x31, 0x5f, 0x31, 0x2f, 0x42, 0x69, 0x61, 0x73,
  0x41, 0x64, 0x64, 0x2f, 0x52, 0x65, 0x61, 0x64, 0x56, 0x61, 0x72, 0x69,
  0x61, 0x62, 0x6c, 0x65, 0x4f, 0x70, 0x00, 0x00, 0x01, 0x00, 0x00, 0x00,
  0x10, 0x00, 0x00, 0x00, 0x52, 0xff, 0xff, 0xff, 0x00, 0x00, 0x00, 0x01,
  0x10, 0x00, 0x00, 0x00, 0x10, 0x00, 0x00, 0x00, 0x05, 0x00, 0x00, 0x00,
  0x1c, 0x00, 0x00, 0x00, 0xd8, 0xfe, 0xff, 0xff, 0x0f, 0x00, 0x00, 0x00,
  0x61, 0x72, 0x69, 0x74, 0x68, 0x2e, 0x63, 0x6f, 0x6e, 0x73, 0x74, 0x61,
  0x6e, 0x74, 0x33, 0x00, 0x01, 0x00, 0x00, 0x00, 0x08, 0x00, 0x00, 0x00,
  0x8a, 0xff, 0xff, 0xff, 0x00, 0x00, 0x00, 0x01, 0x10, 0x00, 0x00, 0x00,
  0x10, 0x00, 0x00, 0x00, 0x04, 0x00, 0x00, 0x00, 0x1c, 0x00, 0x00, 0x00,
  0x10, 0xff, 0xff, 0xff, 0x0f, 0x00, 0x00, 0x00, 0x61, 0x72, 0x69, 0x74,
  0x68, 0x2e, 0x63, 0x6f, 0x6e, 0x73, 0x74, 0x61, 0x6e, 0x74, 0x32, 0x00,
  0x01, 0x00, 0x00, 0x00, 0x03, 0x00, 0x00, 0x00, 0xc2, 0xff, 0xff, 0xff,
  0x00, 0x00, 0x00, 0x01, 0x10, 0x00, 0x00, 0x00, 0x10, 0x00, 0x00, 0x00,
  0x03, 0x00, 0x00, 0x00, 0x1c, 0x00, 0x00, 0x00, 0x48, 0xff, 0xff, 0xff,
  0x0f, 0x00, 0x00, 0x00, 0x61, 0x72, 0x69, 0x74, 0x68, 0x2e, 0x63, 0x6f,
  0x6e, 0x73, 0x74, 0x61, 0x6e, 0x74, 0x31, 0x00, 0x02, 0x00, 0x00, 0x00,
  0x08, 0x00, 0x00, 0x00, 0x10, 0x00, 0x00, 0x00, 0x00, 0x00, 0x16, 0x00,
  0x18, 0x00, 0x14, 0x00, 0x00, 0x00, 0x10, 0x00, 0x0c, 0x00, 0x08, 0x00,
  0x00, 0x00, 0x00, 0x00, 0x00, 0x00, 0x07, 0x00, 0x16, 0x00, 0x00, 0x00,
  0x00, 0x00, 0x00, 0x01, 0x10, 0x00, 0x00, 0x00, 0x10, 0x00, 0x00, 0x00,
  0x02, 0x00, 0x00, 0x00, 0x1c, 0x00, 0x00, 0x00, 0x9c, 0xff, 0xff, 0xff,
  0x0e, 0x00, 0x00, 0x00, 0x61, 0x72, 0x69, 0x74, 0x68, 0x2e, 0x63, 0x6f,
  0x6e, 0x73, 0x74, 0x61, 0x6e, 0x74, 0x00, 0x00, 0x02, 0x00, 0x00, 0x00,
  0x03, 0x00, 0x00, 0x00, 0x08, 0x00, 0x00, 0x00, 0x00, 0x00, 0x16, 0x00,
  0x1c, 0x00, 0x18, 0x00, 0x00, 0x00, 0x14, 0x00, 0x10, 0x00, 0x0c, 0x00,
  0x00, 0x00, 0x00, 0x00, 0x08, 0x00, 0x07, 0x00, 0x16, 0x00, 0x00, 0x00,
  0x00, 0x00, 0x00, 0x01, 0x14, 0x00, 0x00, 0x00, 0x20, 0x00, 0x00, 0x00,
  0x20, 0x00, 0x00, 0x00, 0x01, 0x00, 0x00, 0x00, 0x3c, 0x00, 0x00, 0x00,
  0x02, 0x00, 0x00, 0x00, 0xff, 0xff, 0xff, 0xff, 0x0d, 0x00, 0x00, 0x00,
  0x04, 0x00, 0x04, 0x00, 0x04, 0x00, 0x00, 0x00, 0x1e, 0x00, 0x00, 0x00,
  0x73, 0x65, 0x72, 0x76, 0x69, 0x6e, 0x67, 0x5f, 0x64, 0x65, 0x66, 0x61,
  0x75, 0x6c, 0x74, 0x5f, 0x6b, 0x65, 0x72, 0x61, 0x73, 0x5f, 0x74, 0x65,
  0x6e, 0x73, 0x6f, 0x72, 0x3a, 0x30, 0x00, 0x00, 0x02, 0x00, 0x00, 0x00,
  0x01, 0x00, 0x00, 0x00, 0x0d, 0x00, 0x00, 0x00, 0x02, 0x00, 0x00, 0x00,
  0x20, 0x00, 0x00, 0x00, 0x04, 0x00, 0x00, 0x00, 0xf4, 0xff, 0xff, 0xff,
  0x19, 0x00, 0x00, 0x00, 0x00, 0x00, 0x00, 0x19, 0x0c, 0x00, 0x0c, 0x00,
  0x0b, 0x00, 0x00, 0x00, 0x00, 0x00, 0x04, 0x00, 0x0c, 0x00, 0x00, 0x00,
  0x09, 0x00, 0x00, 0x00, 0x00, 0x00, 0x00, 0x09
};
unsigned int wine_mlp_float_tflite_len = 3632;
